DF
06
1B
27
B6
E2
9C
15
F9
00
20
01
0C
03
08
03
10
10
E9
EA
F5
EF
0F
E3
15
0C
C8
14
0E
EF
DF
14
D6
EA
39
18
FC
13
FB
B4
12
F2
FB
C3
F8
12
18
FC
1A
11
02
D8
E6
E6
1C
01
F3
27
E1
FD
E5
E8
D9
CB
42
1D
2F
2B
F2
C3
16
22
02
1D
C7
F4
D6
30
D4
F9
EE
FA
2A
32
DE
D3
CC
41
F6
EB
F2
EE
05
F6
CB
27
EE
11
E3
F8
0C
16
02
02
F7
F9
02
02
DF
F8
F8
19
13
05
FB
E3
EB
17
0C
0A
E8
1E
FD
18
3A
EF
E1
FA
FD
9B
04
32
D5
D6
15
FE
23
E6
F2
EB
FB
08
FF
19
F6
05
D7
07
03
0C
FD
18
09
EA
30
03
F0
EB
F6
CE
1C
F4
11
06
B7
0E
D9
1A
0F
FB
FB
E9
10
0A
DB
F4
ED
0A
09
E9
16
E5
F1
F9
EE
19
FF
01
FB
13
0E
22
F3
E3
02
06
FD
0F
DB
ED
0C
FB
0A
F7
05
08
FA
0B
01
20
19
FB
2C
10
F3
DC
CB
F1
0A
FB
F2
1E
AE
EF
3A
FA
16
12
F8
E5
05
04
0C
10
00
E2
E6
14
F0
20
FC
1A
05
09
FE
E6
C9
04
EF
F8
12
ED
08
17
CA
F8
FA
1C
F9
0C
00
D2
0C
07
DB
23
19
0F
06
FB
0C
E4
D9
C1
A4
32
3E
E7
01
04
05
2A
01
11
01
F2
1C
0A
F9
F7
05
E4
04
E7
CF
DF
06
F5
06
27
29
EF
2C
FD
03
AA
C0
ED
E5
1A
DC
FD
DA
10
2E
08
C9
19
1B
DD
0C
DD
F4
0D
F4
D3
DF
FF
1A
1C
0F
F0
28
1A
F7
BE
E9
0C
08
17
09
E0
FE
10
BB
04
CA
29
0B
0E
FD
D3
F2
F8
CE
1B
32
01
02
FD
B5
E7
21
04
EC
01
96
08
12
05
E4
11
28
FA
12
F3
EF
EE
FF
EE
F1
E4
E7
F3
1F
00
DC
D6
FA
11
EF
E7
F8
F3
0A
0A
F7
FB
11
1D
0D
EF
FA
D4
1F
12
1E
0A
D9
FB
0A
03
0A
EF
15
E7
F7
1A
F8
FA
F6
8A
C8
BF
EB
0D
FD
D7
39
20
D0
08
F7
ED
01
07
DD
31
01
E8
E9
11
1C
10
F1
F0
D9
3E
FF
C0
01
E9
04
00
0F
09
ED
F2
04
10
0C
05
0C
D2
09
0C
10
04
F1
02
F5
DE
0B
15
FE
FA
09
CD
F9
FB
00
EE
12
EB
E3
10
DF
06
1C
04
16
18
0A
E8
F0
16
2F
F1
E6
E8
04
FB
F5
FA
F6
13
F2
EF
11
02
ED
16
F2
CD
F2
FE
0D
E5
21
FB
04
FC
D1
EA
07
04
FE
ED
17
21
FE
AB
1D
04
FA
05
23
FB
F6
04
E1
E5
E9
0D
E1
04
E9
10
F5
00
03
4F
0A
0B
FF
ED
01
E8
EA
14
FA
CF
ED
F8
FD
F1
FE
00
0D
06
12
2B
09
D6
06
0F
F4
FD
FF
F6
E4
45
E2
E5
21
F5
16
01
E8
DA
F9
E2
04
06
EE
F4
FB
E5
09
07
00
15
EE
F4
07
F6
DD
0B
06
08
F4
DB
DD
FF
00
ED
F8
E9
1A
17
D7
CB
FB
F7
06
16
10
0E
1B
F1
FD
F3
CB
F6
F4
33
DC
FE
FC
F4
F2
24
FD
12
00
D4
06
1D
E6
DB
F8
E1
FD
00
0D
0B
14
F1
F5
15
46
0E
E8
E8
DD
07
1C
0C
E0
2A
F8
02
1A
FE
03
CF
08
17
0E
D4
FB
DE
04
01
05
F7
0F
EC
1D
13
18
15
F9
FF
1A
E7
01
1B
DD
F0
F1
F2
F2
1C
F8
35
20
FE
04
C2
CC
F0
F3
05
FB
1E
16
06
E7
F9
CC
06
DE
11
18
1A
CA
1B
E5
08
D2
00
0D
1A
F4
1F
CE
FC
1A
D9
FC
F9
07
F6
1B
F4
C9
11
DD
21
11
DC
B3
30
FA
04
05
F8
F0
11
10
FF
FF
EA
01
03
15
13
08
0A
ED
D8
1C
F6
EB
F8
EE
CB
35
F7
12
A9
AC
DB
23
EE
14
EA
E3
1A
FB
01
EA
F8
09
04
EF
FF
FE
23
E4
27
EF
15
18
23
C4
11
D2
13
C0
EC
F9
0D
14
E5
E7
F7
F8
16
01
1E
E8
F6
EC
EE
FC
1B
E1
E7
07
E8
02
0F
EB
1B
13
E6
0A
FA
FF
07
EF
14
F5
0F
18
FB
EB
0D
CF
15
05
F9
F6
EC
F9
31
09
E8
F0
09
03
EC
07
EA
FF
05
36
0A
04
1D
DC
07
EE
0F
FC
FF
FE
E3
C5
D1
D7
FB
1E
FE
DC
F0
0E
28
F9
DF
F9
0C
09
02
E9
DF
F6
1E
F2
15
0B
04
00
FB
F6
06
FF
0A
0D
FD
0B
DC
F2
F5
01
18
DC
FE
1F
F5
F0
06
E8
0A
12
01
10
C7
04
FE
F5
05
13
03
E5
FF
05
FA
0D
CE
2B
CE
0F
C6
DC
14
05
2C
19
FB
16
00
05
06
34
CF
FB
F0
CA
0A
E8
09
03
07
E4
DE
02
02
00
B1
13
03
23
F2
04
05
E6
F4
0A
DA
0B
00
1F
FD
08
09
F4
E5
1F
2A
20
C7
0F
E0
EF
1D
FA
CA
ED
21
FB
E1
0E
DF
02
06
F4
28
D2
25
FC
0D
F7
03
E0
07
FC
DA
37
DD
B1
15
BD
2B
27
F5
17
EC
26
18
38
DA
DC
E0
F2
F9
C8
FC
F4
F8
F7
1E
BE
23
1D
D8
13
CE
02
DC
D7
18
E6
1E
F5
F6
0B
0D
F8
95
17
1A
02
07
37
F3
FC
C5
D0
E7
0B
15
F9
FC
F3
F2
14
C5
05
ED
05
00
E8
03
15
C8
15
EE
ED
10
F8
20
F5
0D
D4
E2
F4
0D
3F
EB
0D
10
8D
D6
20
B7
3D
D8
24
0A
FD
02
EE
EB
18
E8
10
F1
EF
14
28
D3
11
CD
FF
FA
05
DD
F5
06
FF
0F
ED
13
EB
F3
F6
F4
11
F8
16
F1
F9
E9
0D
D9
30
CB
07
1D
FD
05
06
17
03
CE
EF
18
FC
F5
D9
22
D3
30
CB
BC
CD
1C
09
02
0D
01
F7
FF
12
EE
EC
08
1A
01
1C
00
DE
0F
E8
E8
D2
FC
17
02
27
0C
B0
0C
0B
BA
16
D1
08
44
E9
E5
16
FA
0B
1D
E3
01
E6
0F
0D
02
05
05
11
23
02
02
0B
D6
E5
FC
1C
02
19
12
E1
05
E7
0A
07
F9
F1
F7
1E
FB
FA
FE
14
D4
F0
0D
FB
0A
1D
F6
F0
FA
02
E3
FE
11
CE
08
02
81
03
F3
FA
21
23
02
E7
E6
11
EC
F0
EA
1F
09
1E
E2
87
16
0F
10
CF
E6
11
12
20
09
A8
07
0B
DA
08
C9
E4
49
CE
F3
04
04
FF
11
FE
1E
F5
C0
FD
FE
15
FB
F4
28
EF
08
02
CB
00
1C
E5
21
0B
E4
F4
E4
D4
EC
01
FC
19
E8
E9
16
FC
FD
04
07
FC
04
EE
FD
0C
DA
02
FD
08
FA
F9
F9
E9
FD
07
F7
0C
F7
33
0C
33
E0
EF
F7
03
F7
E1
E1
ED
2F
1A
DF
F4
ED
FA
C5
DF
40
B4
22
13
EB
07
06
02
9C
0C
1A
C2
02
F0
24
18
18
E6
D6
23
F7
13
F7
02
FB
F8
0B
FE
E6
E0
13
AE
EE
16
08
FC
F5
FC
FC
19
E5
F6
EE
F8
FF
0A
EF
EF
04
EF
F4
FF
37
2F
DC
2E
EF
01
FF
DC
EA
D0
1E
2A
E0
29
DC
DF
1A
18
D6
81
23
F8
FB
00
AD
EC
3E
03
56
