17
14
FC
EC
2C
F5
CD
3B
41
EF
FC
7A
1F
06
F4
10
E6
F5
15
BD
FF
FC
0C
7A
1A
3C
26
C6
21
95
0D
F6
E8
1F
81
22
F1
A8
6B
CE
D1
FF
B4
F8
D5
DF
4C
E1
EF
26
30
27
CE
3A
0E
A6
E5
C5
CF
C7
12
17
D6
2D
0C
F9
4C
1F
EC
73
12
D3
4A
4F
21
A6
35
46
C8
01
26
28
E9
3C
D3
0F
05
55
E1
D8
DA
C4
50
FE
C1
FA
A2
81
E5
2F
FA
FF
0A
D4
E1
D8
D3
EA
81
C9
B2
