03
CB
11
F0
0B
0D
08
FD
FF
1D
19
1A
21
04
D9
DA
EF
08
E0
FC
FC
F0
F4
E1
28
0C
08
EF
FC
FD
D5
22
0E
3B
B3
DB
D4
18
F9
F6
07
09
FA
00
EC
03
F7
ED
FE
29
E1
0B
FB
14
C3
CA
B6
3F
FF
F8
FD
F1
E7
CD
30
FF
1C
DE
14
EC
FD
C7
EB
D9
14
05
05
E0
32
32
14
ED
25
E2
27
F9
22
F3
FF
E6
FA
19
F4
F4
08
EE
ED
13
DB
0A
FD
03
12
16
E0
10
27
2F
03
D4
0B
12
E9
EF
1D
0D
E9
FC
FD
FC
15
C2
05
0B
C5
FD
F1
33
D7
11
16
ED
0E
FB
00
F7
DB
23
E2
05
12
E3
07
05
CF
E1
DE
2A
07
21
0C
0B
FC
E0
0E
16
EE
E0
04
06
D2
A5
FE
FE
EE
FE
1A
CD
0D
1C
FA
FF
06
10
02
EA
0A
E0
DF
FF
EF
FD
03
0F
14
E1
EB
22
DB
ED
E4
D0
F3
06
F1
28
38
03
F4
D3
0B
3D
F1
02
2F
B3
F2
FA
F2
F8
0A
BD
E6
05
B8
EA
F3
08
0E
F3
13
0B
F3
D4
C5
12
19
EA
13
F7
0D
CC
F6
10
CD
F2
FE
1E
F2
E3
06
1A
0E
08
1B
E0
01
08
EF
E5
D4
D3
C4
32
F1
F0
27
08
11
CA
05
15
09
FB
0F
FA
00
E2
EC
0C
2D
FA
F9
E7
1C
8F
DC
F7
21
11
EB
BF
F4
CF
C8
1D
3E
15
F9
C3
17
4A
DB
ED
71
AC
0A
00
EB
AE
DB
E4
F3
16
D5
22
FB
2A
02
EC
D0
37
B5
E1
02
42
F4
05
F4
F5
FA
F1
EC
0B
BD
11
EA
06
27
0F
0E
1B
DC
E7
14
C8
02
11
DB
D1
DE
C4
DD
23
E5
1D
43
14
C2
AD
FF
20
07
AF
2A
ED
00
F5
F9
F5
0A
01
0F
14
FC
D9
0B
1F
F8
E3
E3
E5
37
1C
EE
0F
EB
1E
FB
F5
00
F3
C9
EA
F7
18
2C
EC
EA
20
B9
2A
FF
12
0C
0E
D8
0A
15
E2
0A
13
0C
D0
FD
F2
F3
FD
DA
09
CB
F0
07
1B
10
0F
BF
08
1C
EB
23
E4
D5
C7
1C
10
1F
CD
0F
20
14
9C
DB
CF
09
F0
06
99
30
29
0C
E6
19
E2
0D
02
0C
FB
FD
EF
EC
25
10
09
DE
F9
E6
F3
01
F9
C6
D1
20
04
00
F0
0A
F1
01
F7
F7
22
DB
21
F2
09
1E
F5
F5
FC
F0
D6
03
F7
F7
11
E1
04
DF
4B
0F
D8
ED
05
0E
07
07
29
EB
F7
13
E2
09
0A
DA
02
C6
0F
07
12
E2
F3
F8
E3
0E
17
FB
D6
0D
05
F7
CB
F7
F4
38
F9
0E
DC
04
F8
DC
26
1B
00
F9
FF
15
FD
0B
ED
E6
1F
12
02
F8
12
DE
17
FE
EC
D6
E9
06
F3
29
04
0C
10
E5
FC
06
30
E4
F7
04
F7
EB
08
05
1A
E8
A9
F3
07
02
FE
EE
DE
1E
2B
02
1B
F9
0A
01
F6
EE
EC
1E
06
E2
CC
FE
09
06
0B
E6
09
1E
1D
E0
03
02
01
2B
F4
03
1E
ED
DA
B9
DD
02
1C
15
DC
25
F3
26
E2
E5
FE
FB
C5
09
23
1B
24
FD
C5
28
10
FC
D0
AF
28
3B
E4
EA
F7
D9
00
09
F3
D7
00
08
D6
E9
F3
28
D7
0A
D9
D9
0C
EB
28
E8
B9
F7
DD
06
FE
E9
E7
00
FE
22
0F
D5
18
FF
0E
21
D7
B9
16
04
FC
0F
C9
F9
F5
BB
16
0E
F6
27
06
E1
E8
EF
EE
07
2B
D9
EA
DD
0C
BF
E6
F6
23
2D
C1
D4
11
14
81
2F
25
0E
B6
E1
0E
F6
E1
BA
23
CD
10
08
1B
F5
0E
D9
1E
09
EC
EA
09
DE
0C
E2
1C
E7
0E
EE
2D
1A
F9
0E
FE
E6
04
29
EE
E6
FD
04
0D
E7
FA
FA
04
05
F9
FF
F7
FB
06
FD
E7
18
F0
D5
E3
DD
04
D8
0B
FC
F7
1A
F1
F7
F4
1D
FA
27
ED
EE
E4
0C
06
16
FE
00
28
07
CF
F9
D1
02
E6
1B
F4
29
18
F7
03
01
08
F4
1F
E7
08
E3
21
F1
0C
0C
15
E5
E4
E4
23
F6
06
FD
16
17
1A
01
12
EB
04
DF
16
23
24
DE
0B
D9
0C
24
01
0A
EC
F9
C4
EA
F3
19
07
E3
F1
ED
26
E5
1D
0A
EF
FF
FF
FF
F7
FE
1A
D3
DF
DB
15
02
12
BD
F8
0D
14
03
27
EE
E4
01
1B
0B
01
F2
EE
12
D3
03
FC
4A
F0
12
C4
EE
22
F6
21
FD
0D
FB
08
F7
0A
0D
ED
0D
02
15
00
F3
1E
EA
F2
FE
00
0B
30
FE
E8
20
BB
FA
33
D9
14
1F
0A
02
DE
EA
0E
22
DD
04
05
0E
E9
EA
EB
19
F0
0B
F3
FE
00
FB
22
EA
F8
0F
D7
01
0A
14
F3
09
C8
01
0F
09
FE
05
0D
FC
FC
E6
23
03
E9
04
DE
16
F3
F1
14
A5
10
27
0B
EB
CC
F4
02
ED
F9
E5
4F
FF
E4
0B
EC
F2
F9
B9
FE
0B
28
D2
04
B9
36
F0
E4
E2
FE
EF
EA
11
B7
F7
00
E7
16
D9
D7
F3
2F
15
00
D9
CC
F7
C8
0D
00
0B
E0
0C
FC
11
E5
01
27
E3
E7
02
13
24
E8
15
A5
E5
3C
D4
0E
19
DF
FF
F1
DD
10
0A
24
F1
05
C2
01
14
E6
1F
E5
AF
00
CD
3A
07
F2
2B
E4
1B
BD
E4
2C
C4
F3
21
EC
E3
03
E9
0D
08
0D
D6
EF
D8
FF
11
F9
1F
18
B5
21
FD
10
03
C3
EB
30
AE
21
C8
DC
E7
03
05
10
FE
F5
0D
00
15
D5
09
F3
11
1C
F5
0C
EF
0C
FE
CC
F2
EB
0A
F6
0F
10
EA
F2
EA
C1
FE
EF
EA
06
00
1C
FD
0C
F0
12
FE
E8
14
02
FB
F5
F2
E3
10
C9
24
EC
11
F9
14
EF
D2
E1
0A
D4
34
C8
F8
F2
DF
02
1F
EC
AD
23
21
03
D5
FB
06
14
F9
08
EA
F3
E5
1F
EE
E1
F1
13
C3
19
19
B0
EB
F2
F6
F1
EB
C7
19
F7
31
0B
25
E3
FC
C8
EC
03
DC
0F
FA
B1
07
DB
16
E7
10
EF
F4
03
12
DC
FC
D5
E9
D4
00
28
00
0A
FB
D4
F1
00
30
FF
05
E2
EA
D8
28
DF
1E
D7
06
22
32
D6
E8
FB
EE
DD
04
FE
08
E8
DD
FD
F9
0F
ED
03
F2
13
05
08
02
26
FB
FC
E8
DF
FD
E1
15
D9
FE
18
FB
00
2C
C7
F2
FB
BD
27
D3
EB
15
F9
F7
09
18
EF
09
E9
EC
0D
D7
17
03
DC
38
CC
20
19
26
F2
F3
F9
15
EB
EB
F5
07
D9
04
1C
D3
01
1A
D1
14
D5
A4
3B
18
B8
25
D4
BE
F8
12
03
E9
F5
3A
C4
EE
C5
EF
04
B3
27
0E
E6
11
12
F5
10
CE
0E
E7
E6
05
23
0E
DC
E4
FD
E6
FF
EC
EE
26
E0
36
CB
CE
0D
EF
A4
E8
00
D2
10
EC
DD
39
B8
DE
07
E3
28
F0
F3
0B
0F
04
EF
16
E1
32
CB
EB
F4
F8
16
08
FB
FB
FE
E6
0B
E5
04
1E
01
E8
F1
0D
D4
27
C7
9F
2C
C5
B1
3E
D5
9C
01
E9
2E
F3
8C
25
F1
0B
A5
F8
1A
99
03
CB
65
E4
F4
FA
14
E2
DA
D7
FB
5E
7F
9A
B7
BC
F4
3D
31
CD
37
