25
F2
11
02
18
EF
0C
30
F6
22
3D
FA
3B
21
F8
0D
05
EF
1D
3F
F6
17
7F
0A
19
22
09
DB
FD
DE
1F
2B
E9
34
26
F4
C8
40
DB
90
00
EE
CF
FE
DA
23
18
F4
23
EB
E7
CC
06
FD
C6
F3
10
00
DF
16
15
E8
08
17
F3
0B
03
D4
29
05
E5
21
03
E3
22
27
D3
32
21
DD
2A
33
E1
1D
1E
14
E4
FC
BC
28
D4
81
0D
02
37
07
E4
D5
E5
23
29
13
E4
FE
49
A7
31
86
3D
7F
D5
